<pad>	0
<unk>	0
<s>	0
</s>	0
<hi>	0
<te>	0
<ml>	0
<kn>	0
್ತ	-0
ಾನ	-1
ತ್ತ	-2
ಾನೆ	-3
ುತ್ತ	-4
ುತ್ತಾನೆ	-5
▁ಮ	-6
ಡುತ್ತಾನೆ	-7
್ಟ	-8
▁ಇ	-9
್ರ	-10
▁ಸ	-11
▁ವ	-12
▁ಬ	-13
▁ಆ	-14
ಂಬ	-15
ತು	-16
ಂಬಾ	-17
▁ತು	-18
▁ತುಂಬಾ	-19
ದ್	-20
ಾರ	-21
▁ನ	-22
ಷ್ಟ	-23
ತ್ತು	-24
ಷ್ಟಪ	-25
▁ಇಷ್ಟಪ	-26
▁ಮತ್ತು	-27
▁ಇಷ್ಟಪಡುತ್ತಾನೆ	-28
▁ಹ	-29
▁ಪ	-30
▁ರ	-31
ಕ್	-32
ಂದ	-33
▁ಕ	-34
ಗಳ	-35
▁ಅ	-36
▁ಸಂ	-37
ಗೆ	-38
ಜ್	-39
ದ್ಯ	-40
ತಿ	-41
▁ಶ	-42
▁ವಿ	-43
ರೆ	-44
ಲಿ	-45
ಟ್ಟ	-46
್ಪ	-47
ೀತ	-48
▁ಆಸ	-49
▁ರಾ	-50
▁ಗ	-51
ಕ್ಕ	-52
ಮ್	-53
ಮ್ಮ	-54
ತ್ರ	-55
▁ಬೆ	-56
ಗಳು	-57
▁ಬರ	-58
ಳಿ	-59
▁ಓ	-60
ದಿ	-61
ಗುತ್ತಾನೆ	-62
▁ದ	-63
▁ಪ್ರ	-64
▁ಸ್	-65
ಾಡುತ್ತಾನೆ	-66
ಿತ	-67
್ಥ	-68
ೀತಾ	-69
ಾಲ	-70
ಲ್	-71
ಲ್ಲಿ	-72
ಜ್ಞ	-73
ಜ್ಞಾನ	-74
▁ವಿಜ್ಞಾನ	-75
ಂದು	-76
▁ಇಂದು	-77
▁ಎ	-78
ಕ್ತ	-79
ಂದರೆ	-80
ಕ್ತಿ	-81
▁ಎಂದರೆ	-82
▁ಆಸಕ್ತಿ	-83
ಜೆ	-84
▁ಸಂಜೆ	-85
ಳೆ	-86
ಾಳೆ	-87
▁ನಾಳೆ	-88
ಾಸ	-89
ದ್ದ	-90
ಿದ್ದ	-91
ಿದ್ದಾನೆ	-92
ಳ್	-93
ಕ್ಕೊ	-94
ತ್ರಿ	-95
ಮ್ಮೆ	-96
▁ವಾರ	-97
▁ರಾತ್ರಿ	-98
ಕ್ಕೊಮ್ಮೆ	-99
▁ವಾರಕ್ಕೊಮ್ಮೆ	-100
ದಿನ	-101
ತಿದಿನ	-102
▁ಪ್ರತಿದಿನ	-103
್ಗೆ	-104
ಳಿಗ	-105
ಳಿಗ್ಗೆ	-106
▁ಬೆಳಿಗ್ಗೆ	-107
▁ಬರುತ್ತಾನೆ	-108
▁ಹೋ	-109
▁ಹೋಗುತ್ತಾನೆ	-110
ನೇ	-111
ನೇಹ	-112
ನೇಹಿತ	-113
▁ಸ್ನೇಹಿತ	-114
ಜಿ	-115
▁ಓದ	-116
ಜ್ಜಿ	-117
▁ಅಜ್ಜಿ	-118
▁ಓದುತ್ತಾನೆ	-119
ಷಕ	-120
ಿಕ್	-121
ಿಕ್ಷಕ	-122
▁ಶಿಕ್ಷಕ	-123
▁ರಾಮ	-124
ಯವ	-125
ರು	-126
ಲಸ	-127
ೆರೆ	-128
ೆಲಸ	-129
ಯವರು	-130
▁ಕೆಲಸ	-131
▁ನೆರೆ	-132
▁ನೆರೆಯವರು	-133
▁ಮಾಡುತ್ತಾನೆ	-134
ಟ್ಟಗಳ	-135
▁ಬೆಟ್ಟಗಳ	-136
▁ವಿಜ್ಞಾನಿ	-137
▁ಬೆಟ್ಟಗಳಲ್ಲಿ	-138
ೈತ	-139
▁ರೈತ	-140
▁ಆಡುತ್ತಾನೆ	-141
▁ಓಡುತ್ತಾನೆ	-142
ಹಗ	-143
್ಥಿ	-144
ಹಗಾರ	-145
ದ್ಯಾರ	-146
▁ಬರಹಗಾರ	-147
ದ್ಯಾರ್ಥಿ	-148
▁ವಿದ್ಯಾರ್ಥಿ	-149
▁ವೈ	-150
▁ವೈದ್ಯ	-151
▁ನಗುತ್ತಾನೆ	-152
ಹನ	-153
ೋಹನ	-154
▁ಮೋಹನ	-155
ಳು	-156
ೊಲ	-157
▁ಹೊಲ	-158
ಕ್ಕಳು	-159
▁ಗೀತಾ	-160
▁ಮಕ್ಕಳು	-161
ಚಿ	-162
ಯೋ	-163
ಚಿಸ	-164
ಪ್ಪ	-165
ಾಲೆ	-166
▁ಯೋ	-167
ಳ್ಳಿ	-168
▁ಅಪ್ಪ	-169
▁ಅಮ್ಮ	-170
▁ಶಾಲೆ	-171
▁ಯೋಚಿಸ	-172
▁ಹಳ್ಳಿ	-173
▁ಯೋಚಿಸುತ್ತಾನೆ	-174
ಲಿಯ	-175
▁ಕಲಿಯ	-176
▁ಕಲಿಯುತ್ತಾನೆ	-177
ತ್ರೆ	-178
▁ಆಸ್ಪ	-179
▁ಆಸ್ಪತ್ರೆ	-180
▁ಹಾಡುತ್ತಾನೆ	-181
ಂಥ	-182
ಾಲಯ	-183
್ರಂಥ	-184
▁ಸೀತಾ	-185
▁ಗ್ರಂಥ	-186
▁ಗ್ರಂಥಾಲಯ	-187
ವನ	-188
▁ಉ	-189
ಾನವನ	-190
▁ಉದ್ಯ	-191
▁ಮೋಹನ್	-192
▁ಉದ್ಯಾನವನ	-193
ವಸ	-194
ೇವಸ	-195
್ಥಾನ	-196
▁ದೇವಸ	-197
▁ದೇವಸ್ಥಾನ	-198
ುಕ	-199
ಟ್ಟಣ	-200
ಟ್ಟೆ	-201
ಾರುಕ	-202
▁ಪಟ್ಟಣ	-203
▁ಮಾರುಕ	-204
▁ಮಾರುಕಟ್ಟೆ	-205
ಂಡ	-206
ಗೊ	-207
ವಲ	-208
ುಸ	-209
ಯಾಸ	-210
್ತಕ	-211
ಗೊಂಡ	-212
ವಲ್ಪ	-213
▁ಪುಸ	-214
▁ಆಯಾಸ	-215
್ತಕಗಳು	-216
▁ಸ್ವಲ್ಪ	-217
▁ಆಯಾಸಗೊಂಡ	-218
▁ಪುಸ್ತಕಗಳು	-219
▁ಆಯಾಸಗೊಂಡಿದ್ದಾನೆ	-220
▁ಆಟ	-221
▁ಆಟಗಳು	-222
ಡದ	-223
ಗೀತ	-224
▁ದಡದ	-225
▁ನದಿ	-226
▁ಸಂಗೀತ	-227
▁ದಡದಲ್ಲಿ	-228
ಜೀ	-229
ವಿ	-230
ಮಜೀ	-231
▁ಶ್ರ	-232
ಮಜೀವಿ	-233
▁ಶ್ರಮಜೀವಿ	-234
ತೂ	-235
ನೆ	-236
ಲಕ	-237
ತೂಹ	-238
ಾರಿ	-239
▁ಕು	-240
▁ಮನೆ	-241
ತೂಹಲಕ	-242
ತೂಹಲಕಾರಿ	-243
▁ಕುತೂಹಲಕಾರಿ	-244
ಕೃ	-245
ತೋ	-246
ವಾ	-247
ತಿಹ	-248
ತೋಷ	-249
ವಾಗ	-250
ಕೃತಿ	-251
ತಿಹಾಸ	-252
ತೋಷವಾಗ	-253
▁ಇತಿಹಾಸ	-254
▁ಪ್ರಕೃತಿ	-255
▁ಸಂತೋಷವಾಗ	-256
▁ಸಂತೋಷವಾಗಿದ್ದಾನೆ	-257
ಣಿತ	-258
▁ಗಣಿತ	-259
ಥೆ	-260
▁ಕಥೆ	-261
▁ಕಥೆಗಳು	-262
ಂತ	-263
ಧಿ	-264
ಧಿವ	-265
ುದ್	-266
ಧಿವಂತ	-267
▁ಬುದ್	-268
▁ಬುದ್ಧಿವಂತ	-269
ಯು	-270
ಯೆ	-271
ಳ್ಳ	-272
ಯೆಯು	-273
▁ದಯೆಯು	-274
▁ದಯೆಯುಳ್ಳ	-275
▁ರಾಮಗೆ	-276
▁ರೈತಗೆ	-277
▁ಅಪ್ಪಗೆ	-278
▁ಅಮ್ಮಗೆ	-279
▁ಗೀತಾಗೆ	-280
▁ಮೋಹನ್ಗೆ	-281
▁ವೈದ್ಯಗೆ	-282
▁ಬರಹಗಾರಗೆ	-283
▁ಸ್ನೇಹಿತಗೆ	-284
▁ವಿಜ್ಞಾನಿಗೆ	-285
▁ವಿದ್ಯಾರ್ಥಿಗೆ	-286
▁ಸೀತಾಗೆ	-287
▁ಅಜ್ಜಿಗೆ	-288
▁ಮಕ್ಕಳುಗೆ	-289
▁ಶಿಕ್ಷಕಗೆ	-290
▁ನೆರೆಯವರುಗೆ	-291
ಂಗ	-292
ಂಜ	-293
ಅಜ	-294
ಅಪ	-295
ಅಮ	-296
ಆಟ	-297
ಆಡ	-298
ಆಯ	-299
ಆಸ	-300
ಇಂ	-301
ಇತ	-302
ಇಷ	-303
ಉದ	-304
ಎಂ	-305
ಓಡ	-306
ಓದ	-307
ಕಗ	-308
ಕಟ	-309
ಕಥ	-310
ಕಲ	-311
ಕಳ	-312
ಕಾ	-313
ಕು	-314
ಕೆ	-315
ಕೊ	-316
ಗಣ	-317
ಗಾ	-318
ಗಿ	-319
ಗೀ	-320
ಗು	-321
ಗ್	-322
ಞಾ	-323
ಟಗ	-324
ಟಣ	-325
ಟಪ	-326
ಟೆ	-327
ಟ್	-328
ಡಿ	-329
ಡು	-330
ಣಿ	-331
ತಕ	-332
ತಗ	-333
ತಾ	-334
ತ್	-335
ಥಾ	-336
ಥಿ	-337
ದಡ	-338
ದಯ	-339
ದರ	-340
ದಲ	-341
ದಾ	-342
ದು	-343
ದೇ	-344
▁	-345
್	-346
ತ	-347
ಾ	-348
ೆ	-349
ು	-350
ನ	-351
ಿ	-352
ರ	-353
.	-354
ದ	-355
ಗ	-356
ಮ	-357
ಕ	-358
ಂ	-359
ಸ	-360
ಪ	-361
ವ	-362
ಟ	-363
ಬ	-364
ಳ	-365
ಲ	-366
ಡ	-367
,	-368
ಯ	-369
ಹ	-370
ಇ	-371
ಜ	-372
ಷ	-373
ಆ	-374
ೋ	-375
ಥ	-376
ೀ	-377
ೊ	-378
ಅ	-379
ಶ	-380
ಓ	-381
ೈ	-382
ೇ	-383
ಞ	-384
ಎ	-385
ಣ	-386
ಚ	-387
ಉ	-388
ೂ	-389
ೃ	-390
ಧ	-391
