<pad>	0
<unk>	0
<s>	0
</s>	0
<hi>	0
<te>	0
<ml>	0
<kn>	0
▁ह	-0
ന്	-1
డు	-2
್ತ	-3
ता	-4
▁है	-5
ಾನ	-6
ತ್ತ	-7
ന്ന	-8
ുന്ന	-9
ాడు	-10
ಾನೆ	-11
ക്	-12
ುತ್ತ	-13
ುತ್ತಾನೆ	-14
ുന്നു	-15
▁क	-16
తాడు	-17
▁प	-18
▁വ	-19
▁ప	-20
్ర	-21
ക്ക	-22
▁ಮ	-23
ത്	-24
▁म	-25
▁स	-26
ಡುತ್ತಾನೆ	-27
▁ब	-28
ിക്ക	-29
▁చ	-30
రి	-31
്ട	-32
ాల	-33
▁പ	-34
്പ	-35
్త	-36
್ಟ	-37
్ట	-38
▁അ	-39
▁ಇ	-40
್ರ	-41
▁ఆ	-42
▁ಸ	-43
▁ర	-44
▁ఇ	-45
ടുന്നു	-46
డతాడు	-47
యు	-48
▁మ	-49
▁వ	-50
ിക്കുന്നു	-51
▁ഇ	-52
▁ക	-53
ాలా	-54
▁చాలా	-55
▁స	-56
▁ವ	-57
▁ಬ	-58
▁ಆ	-59
▁र	-60
रता	-61
ష్ట	-62
ష్టప	-63
▁करता	-64
हु	-65
हुत	-66
▁बहुत	-67
▁న	-68
ಂಬ	-69
ತು	-70
▁द	-71
ಂಬಾ	-72
▁ತು	-73
▁ತುಂಬಾ	-74
ದ್	-75
ಾರ	-76
ंद	-77
രാ	-78
ర్	-79
▁ച	-80
ें	-81
ിൽ	-82
ത്ര	-83
ार	-84
്യ	-85
రియు	-86
▁ఇష్టప	-87
▁మరియు	-88
▁ఇష్టపడతాడు	-89
ాన	-90
▁క	-91
▁ನ	-92
▁గ	-93
ಷ್ಟ	-94
ತ್ತು	-95
ಷ್ಟಪ	-96
▁ಇಷ್ಟಪ	-97
▁ಮತ್ತು	-98
▁ಇಷ್ಟಪಡುತ್ತಾನೆ	-99
త్ర	-100
और	-101
संद	-102
▁और	-103
▁पसंद	-104
▁में	-105
▁രാ	-106
▁സ	-107
్తాడు	-108
▁ಹ	-109
യിൽ	-110
പ്പ	-111
ഷ്ട	-112
പ്പെ	-113
▁ഇഷ്ട	-114
▁ഇഷ്ടപ്പെ	-115
▁ഇഷ്ടപ്പെടുന്നു	-116
▁ग	-117
▁ಪ	-118
स्	-119
ड़	-120
▁ರ	-121
ಕ್	-122
యం	-123
▁అ	-124
ान	-125
ಂದ	-126
▁ಕ	-127
ाम	-128
లు	-129
ಗಳ	-130
▁ख	-131
രെ	-132
ाता	-133
ളരെ	-134
▁വളരെ	-135
ిత	-136
മ്	-137
മ്മ	-138
▁ఆస	-139
നാ	-140
ుతాడు	-141
▁ಅ	-142
▁ಸಂ	-143
ీత	-144
ಗೆ	-145
ಜ್	-146
స్తాడు	-147
▁को	-148
జు	-149
రో	-150
రోజు	-151
ದ್ಯ	-152
ార్	-153
ತಿ	-154
▁ಶ	-155
▁ವಿ	-156
▁പാ	-157
ाँ	-158
ರೆ	-159
ಲಿ	-160
ീത	-161
స్త	-162
▁ఉ	-163
ലി	-164
▁ആ	-165
ക്ക്	-166
ಟ್ಟ	-167
▁ഗ	-168
್ಪ	-169
ంట	-170
ೀತ	-171
▁कि	-172
▁खे	-173
▁ಆಸ	-174
▁ರಾ	-175
▁ಗ	-176
കൾ	-177
ത്രി	-178
▁ఒ	-179
▁श	-180
ന്ത	-181
ಕ್ಕ	-182
ಮ್	-183
ಮ್ಮ	-184
▁आ	-185
ತ್ರ	-186
ല്പ	-187
ज्	-188
ज्ञ	-189
▁എ	-190
▁రా	-191
▁ಬೆ	-192
క్త	-193
క్తి	-194
▁ఆసక్తి	-195
ात	-196
സ്	-197
▁ചി	-198
്ച	-199
ಗಳು	-200
▁ಬರ	-201
వుతాడు	-202
తి	-203
ಳಿ	-204
▁ప్ర	-205
ుడు	-206
▁ಓ	-207
ದಿ	-208
ಗುತ್ತಾನೆ	-209
ज़	-210
▁ದ	-211
త్రి	-212
▁അമ്മ	-213
▁ಪ್ರ	-214
మ్	-215
్న	-216
్య	-217
మ్మ	-218
▁వి	-219
శా	-220
శాస్త	-221
శాస్త్ర	-222
കൻ	-223
ల్	-224
രൻ	-225
ാരൻ	-226
्क	-227
▁ಸ್	-228
ಾಡುತ್ತಾನೆ	-229
▁अ	-230
്യാ	-231
▁నాన	-232
या	-233
▁ദ	-234
ड़ो	-235
ीता	-236
▁పొ	-237
ಿತ	-238
ട്ട	-239
दी	-240
್ಥ	-241
ള്	-242
▁ज	-243
स्त	-244
ೀತಾ	-245
ള്ള	-246
ുള്ള	-247
ಾಲ	-248
త్త	-249
ಲ್	-250
▁കള	-251
ಲ್ಲಿ	-252
्र	-253
ಜ್ಞ	-254
▁खेल	-255
ಜ್ಞಾನ	-256
▁ವಿಜ್ಞಾನ	-257
▁മ	-258
▁పా	-259
ികൾ	-260
ായ	-261
ಂದು	-262
▁ಇಂದು	-263
ഉണ	-264
താ	-265
▁ൽ	-266
ര്യ	-267
ലിയ	-268
്ട്	-269
▁ഉണ	-270
▁താ	-271
ര്യം	-272
▁വലിയ	-273
▁ഉണ്ട്	-274
▁താല്പ	-275
▁താല്പര്യം	-276
രം	-277
ളെ	-278
ൈക	-279
▁ജ	-280
ानि	-281
േരം	-282
▁നാ	-283
▁വൈക	-284
▁നാളെ	-285
ുന്നേരം	-286
▁വൈകുന്നേരം	-287
▁व	-288
▁ಎ	-289
ಕ್ತ	-290
ಂದರೆ	-291
ಕ್ತಿ	-292
▁ಎಂದರೆ	-293
▁ಆಸಕ್ತಿ	-294
ంగ	-295
దయం	-296
▁ఉదయం	-297
ജ്	-298
ജ്ഞ	-299
ంటే	-300
▁కి	-301
▁అంటే	-302
ഒര	-303
ഴ്ച	-304
▁ഒര	-305
ിക്കൽ	-306
▁ആഴ്ച	-307
▁ആഴ്ചയിൽ	-308
▁ഒരിക്കൽ	-309
चि	-310
हन	-311
ुचि	-312
▁रुचि	-313
ొం	-314
▁కొం	-315
ಜೆ	-316
്ര	-317
▁ಸಂಜೆ	-318
కస	-319
కి	-320
ార	-321
కసా	-322
ాని	-323
ന്ന്	-324
▁వార	-325
కసారి	-326
ానికి	-327
▁ഇന്ന്	-328
▁ఒకసారి	-329
▁వారానికి	-330
ಳೆ	-331
ಾಳೆ	-332
▁ನಾಳೆ	-333
ಾಸ	-334
ದ್ದ	-335
వాడు	-336
ಿದ್ದ	-337
ಿದ್ದಾನೆ	-338
हा	-339
ಳ್	-340
ശാ	-341
▁ശാ	-342
സ്ത്ര	-343
▁ശാസ്ത്ര	-344
ലെ	-345
വി	-346
ಕ್ಕೊ	-347
ತ್ರಿ	-348
ಮ್ಮೆ	-349
വിലെ	-350
▁ವಾರ	-351
తిరోజు	-352
▁ರಾತ್ರಿ	-353
▁രാവിലെ	-354
ಕ್ಕೊಮ್ಮೆ	-355
▁ప్రతిరోజు	-356
▁ವಾರಕ್ಕೊಮ್ಮೆ	-357
గల	-358
పు	-359
ేపు	-360
▁రేపు	-361
▁कल	-362
▁आज	-363
▁గ్ర	-364
▁ఈ	-365
ದಿನ	-366
ತಿದಿನ	-367
▁ఈరోజు	-368
▁ಪ್ರತಿದಿನ	-369
ത്രിയിൽ	-370
▁രാത്രിയിൽ	-371
್ಗೆ	-372
का	-373
ണി	-374
िज्ञ	-375
ति	-376
ലാ	-377
ല്	-378
വസ	-379
വു	-380
ोज़	-381
വും	-382
ിവസ	-383
ല്ലാ	-384
▁रोज़	-385
▁ദിവസ	-386
▁എല്ലാ	-387
▁ദിവസവും	-388
एक	-389
प्	-390
ताह	-391
▁एक	-392
▁बार	-393
▁शाम	-394
▁सप्	-395
▁सप्ताह	-396
▁రాత్రి	-397
बह	-398
ോക	-399
ुबह	-400
▁പോക	-401
▁सुबह	-402
▁പോകുന്നു	-403
ాయం	-404
త్రం	-405
▁ചിര	-406
▁సాయం	-407
▁సాయంత్రం	-408
▁ചിരിക്കുന്നു	-409
ಳಿಗ	-410
ಳಿಗ್ಗೆ	-411
▁ಬೆಳಿಗ್ಗೆ	-412
യുള്ള	-413
▁ಬರುತ್ತಾನೆ	-414
▁थ	-415
▁रात	-416
▁കളിക്കുന്നു	-417
ేహ	-418
▁വര	-419
ేహిత	-420
▁స్న	-421
ేహితుడు	-422
▁വരുന്നു	-423
▁స్నేహితుడు	-424
िन	-425
వ్	-426
▁हर	-427
▁ಹೋ	-428
▁दिन	-429
▁నవ్	-430
▁నవ్వుతాడు	-431
▁ಹೋಗುತ್ತಾನೆ	-432
ढ़	-433
ोच	-434
చయ	-435
ನೇ	-436
ನೇಹ	-437
ढ़ता	-438
ोचता	-439
చయిత	-440
ನೇಹಿತ	-441
▁पढ़ता	-442
▁सोचता	-443
▁రచయిత	-444
▁ಸ್ನೇಹಿತ	-445
ಜಿ	-446
മൻ	-447
▁ಓದ	-448
ಜ್ಜಿ	-449
▁രാമൻ	-450
▁ಅಜ್ಜಿ	-451
▁ಓದುತ್ತಾನೆ	-452
ध्	-453
पक	-454
▁കു	-455
ध्या	-456
▁जाता	-457
ध्यापक	-458
ട്ടികൾ	-459
▁अध्यापक	-460
▁കുട്ടികൾ	-461
हर	-462
▁शहर	-463
▁సీత	-464
ूल	-465
ಷಕ	-466
ಿಕ್	-467
्कूल	-468
ಿಕ್ಷಕ	-469
▁स्कूल	-470
▁ಶಿಕ್ಷಕ	-471
ശു	-472
िता	-473
ശുപ	-474
▁വായ	-475
▁पिता	-476
▁ആശുപ	-477
▁ആശുപത്രി	-478
▁വായിക്കുന്നു	-479
▁छ	-480
ौड़	-481
ात्र	-482
ల్లు	-483
▁ರಾಮ	-484
ौड़ता	-485
ർക്ക്	-486
▁छात्र	-487
▁ఇల్లు	-488
▁दौड़ता	-489
చి	-490
లో	-491
ెళ	-492
ಯವ	-493
ರು	-494
ಲಸ	-495
ട്	-496
ೆರೆ	-497
ೆಲಸ	-498
ീട്	-499
▁दो	-500
లోచి	-501
ಯವರು	-502
▁వెళ	-503
▁ಕೆಲಸ	-504
▁ನೆರೆ	-505
▁വീട്	-506
▁दोस्त	-507
▁ఆలోచి	-508
▁పాడతాడు	-509
▁వెళ్తాడు	-510
▁ನೆರೆಯವರು	-511
▁ಮಾಡುತ್ತಾನೆ	-512
▁ఆలోచిస్తాడు	-513
న్	-514
పా	-515
ోహ	-516
ച്	-517
ഛൻ	-518
ർഷ	-519
सान	-520
ధ్య	-521
ాయు	-522
ోహన్	-523
ച്ഛൻ	-524
ർഷകൻ	-525
▁ఉపా	-526
ాయుడు	-527
▁किसान	-528
▁మోహన్	-529
▁അച്ഛൻ	-530
▁കർഷകൻ	-531
▁ఉపాధ్య	-532
▁ఉపాధ్యాయుడు	-533
क्	-534
टर	-535
डॉ	-536
सी	-537
దు	-538
▁डॉ	-539
क्टर	-540
▁माँ	-541
▁గీత	-542
▁చదు	-543
ड़ोसी	-544
ಟ್ಟಗಳ	-545
▁गीता	-546
▁అమ్మ	-547
▁डॉक्टर	-548
▁पड़ोसी	-549
▁ಬೆಟ್ಟಗಳ	-550
▁ವಿಜ್ಞಾನಿ	-551
▁చదువుతాడు	-552
▁ಬೆಟ್ಟಗಳಲ್ಲಿ	-553
कु	-554
ीख	-555
జ్	-556
ೈತ	-557
कुर	-558
ुस्	-559
జ్ఞ	-560
ीखता	-561
▁ఆడు	-562
▁ರೈತ	-563
జ్ఞాన	-564
▁गाता	-565
▁मुस्	-566
कुराता	-567
▁सीखता	-568
▁నానమ్మ	-569
శాస్త్రం	-570
▁ఆడుతాడు	-571
▁విజ్ఞాన	-572
▁ಆಡುತ್ತಾನೆ	-573
▁ಓಡುತ್ತಾನೆ	-574
▁मुस्कुराता	-575
▁విజ్ఞానశాస్త్రం	-576
కు	-577
చు	-578
డా	-579
థి	-580
ഹൃ	-581
ाँव	-582
క్ట	-583
ద్య	-584
ేర్	-585
ുഹൃ	-586
▁డా	-587
కుంట	-588
ത്ത്	-589
ൂമ്മ	-590
▁राम	-591
▁ഗീത	-592
క్టర్	-593
ార్థి	-594
ేర్చు	-595
▁गाँव	-596
▁സുഹൃ	-597
▁విద్య	-598
▁	-599
്	-600
್	-601
ತ	-602
ా	-603
.	-604
ు	-605
ा	-606
్	-607
ന	-608
ക	-609
ಾ	-610
ു	-611
త	-612
ೆ	-613
ह	-614
त	-615
ర	-616
ು	-617
,	-618
ി	-619
ి	-620
డ	-621
ನ	-622
र	-623
ಿ	-624
ര	-625
क	-626
ാ	-627
ै	-628
ప	-629
ರ	-630
പ	-631
स	-632
ల	-633
ത	-634
ం	-635
ട	-636
യ	-637
స	-638
।	-639
ದ	-640
വ	-641
ಗ	-642
న	-643
ಮ	-644
ಕ	-645
प	-646
క	-647
्	-648
య	-649
ಂ	-650
ु	-651
ಸ	-652
म	-653
द	-654
ि	-655
వ	-656
മ	-657
ം	-658
చ	-659
ല	-660
మ	-661
ಪ	-662
ं	-663
െ	-664
ള	-665
ವ	-666
ట	-667
े	-668
ಟ	-669
ಬ	-670
ಳ	-671
ब	-672
ो	-673
ಲ	-674
ಡ	-675
గ	-676
ൽ	-677
ച	-678
ಯ	-679
ಹ	-680
സ	-681
ൻ	-682
न	-683
ే	-684
ज	-685
ल	-686
ी	-687
़	-688
ో	-689
അ	-690
ಇ	-691
ಜ	-692
ഷ	-693
ಷ	-694
ష	-695
ఆ	-696
ఇ	-697
ద	-698
ഇ	-699
ख	-700
ಆ	-701
జ	-702
ോ	-703
ग	-704
ड	-705
ദ	-706
ീ	-707
च	-708
औ	-709
ൾ	-710
ർ	-711
ണ	-712
ೋ	-713
ె	-714
అ	-715
ొ	-716
ഗ	-717
ಥ	-718
य	-719
ೀ	-720
ജ	-721
ೊ	-722
श	-723
ಅ	-724
आ	-725
ీ	-726
ಶ	-727
ँ	-728
ఉ	-729
శ	-730
व	-731
ആ	-732
ശ	-733
ഴ	-734
ൈ	-735
ఒ	-736
ై	-737
ञ	-738
എ	-739
ധ	-740
థ	-741
హ	-742
ಓ	-743
ೈ	-744
ೇ	-745
ഹ	-746
अ	-747
ಞ	-748
ഥ	-749
ൂ	-750
ഉ	-751
ൃ	-752
േ	-753
ಎ	-754
ഞ	-755
ബ	-756
ങ	-757
ഒ	-758
ಣ	-759
ഠ	-760
ణ	-761
ఈ	-762
ए	-763
थ	-764
ढ	-765
ध	-766
ू	-767
छ	-768
ौ	-769
ళ	-770
ధ	-771
ഛ	-772
ट	-773
ॉ	-774
ఞ	-775
ഡ	-776
ಚ	-777
బ	-778
റ	-779
ಉ	-780
ഓ	-781
झ	-782
घ	-783
ృ	-784
ण	-785
ೂ	-786
ृ	-787
ೃ	-788
ఠ	-789
ಧ	-790
इ	-791
